WIDTH=144;
DEPTH=32;
ADDRESS_RADIX=HEX;
DATA_RADIX=HEX;
CONTENT BEGIN
0 : 000000000000000000000000000000000000;
1 : 000000000000000000000000000000000000;
2 : 000000000000000000000000000000000000;
3 : 000000000000000000000000000000000000;
4 : 00000000000000000000FA120508E9F9FD08;
5 : 0000000000000000001B35B7F5857FF659BA;
6 : 000000000000000000000000000000000000;
7 : 000000000000000000C81430F0EF2136EDCD;
8 : 32B61505080ECF3ED8000000000000000000;
9 : 000000000000000000000000000000000000;
A : 000000000000000000000000000000000000;
B : 000000000000000000000000000000000000;
C : B50005150015EDFF2C000000000000000000;
D : 000000000000000000000000000000000000;
E : CDCCC343322DF90406000000000000000000;
F : 000000000000000000000000000000000000;
10 : C616275333DCE7BFEF000000000000000000;
11 : 000000000000000000000000000000000000;
12 : E1E21D3F28B9D4F735000000000000000000;
13 : 000000000000000000F34FC9F6361BA7FC0E;
14 : 000000000000000000000000000000000000;
15 : 000000000000000000000000000000000000;
16 : 000000000000000000F1AA1BBB59393706BF;
17 : 000000000000000000000000000000000000;
18 : 30D0E72DC438C5F335000000000000000000;
19 : 000000000000000000000000000000000000;
1A : 2022FEE72D1D0ACBD4000000000000000000;
1B : 000000000000000000000000000000000000;
1C : 000000000000000000000000000000000000;
1D : 01C0DA0E2D2A0914CC000000000000000000;
1E : F8F6C73E373CBDD00C000000000000000000;
1F : 1B15C0D31F0CDD0512E5D8463EDEBFDF3C0D;
END;
