WIDTH=1024;
DEPTH=1056;
ADDRESS_RADIX=HEX;
DATA_RADIX=HEX;
CONTENT BEGIN
0 : 0000000000000000000000000000000000000000000000000000000000000000000000000000000000000000000000000000000000000000000000000000000000000000000000000000000000000000000000000000000000000000000000000000000000000000000000000000000000000000000000000000000000000000;
1 : 0000000000000000000000000000000000000000000000000000000000000000000000000000000000000000000000000000000000000000000000000000000000000000000000000000000000000000000000000000000000000000000000000000000000000000000000000000000000000000000000000000000000000000;
2 : 0000000000000000000000000000000000000000000000000000000000000000000000000000000000000000000000000000000000000000000000000000000000000000000000000000000000000000000000000000000000000000000000000000000000000000000000000000000000000000000000000000000000000000;
3 : 0000000000000000000000000000000000000000000000000000000000000000000000000000000000000000000000000000000000000000000000000000000000000000000000000000000000000000000000000000000000000000000000000000000000000000000000000000000000000000000000000000000000000000;
4 : 0000000000000000000000000000000000000000000000000000000000000000000000000000000000000000000000000000000000000000000000000000000000000000000000000000000000000000000000000000000000000000000000000000000000000000000000000000000000000000000000000000000000000000;
5 : 0000000000000000000000000000000000000000000000000000000000000000000000000000000000000000000000000000000000000000000000000000000000000000000000000000000000000000000000000000000000000000000000000000000000000000000000000000000000000000000000000000000000000000;
6 : 0000000000000000000000000000000000000000000000000000000000000000000000000000000000000000000000000000000000000000000000000000000000000000000000000000000000000000000000000000000000000000000000000000000000000000000000000000000000000000000000000000000000000000;
7 : 0000000000000000000000000000000000000000000000000000000000000000000000000000000000000000000000000000000000000000000000000000000000000000000000000000000000000000000000000000000000000000000000000000000000000000000000000000000000000000000000000000000000000000;
8 : 0000000000000000000000000000000000000000000000000000000000000000000000000000000000000000000000000000000000000000000000000000000000000000000000000000000000000000000000000000000000000000000000000000000000000000000000000000000000000000000000000000000000000000;
9 : 0000000000000000000000000000000000000000000000000000000000000000000000000000000000000000000000000000000000000000000000000000000000000000000000000000000000000000000000000000000000000000000000000000000000000000000000000000000000000000000000000000000000000000;
A : 0000000000000000000000000000000000000000000000000000000000000000000000000000000000000000000000000000000000000000000000000000000000000000000000000000000000000000000000000000000000000000000000000000000000000000000000000000000000000000000000000000000000000000;
B : 0000000000000000000000000000000000000000000000000000000000000000000000000000000000000000000000000000000000000000000000000000000000000000000000000000000000000000000000000000000000000000000000000000000000000000000000000000000000000000000000000000000000000000;
C : 0000000000000000000000000000000000000000000000000000000000000000000000000000000000000000000000000000000000000000000000000000000000000000000000000000000000000000000000000000000000000000000000000000000000000000000000000000000000000000000000000000000000000000;
D : 000000000000000000000000000000000000000000000000000000000000000000000000000000000000000000000000000000000000000000000000000000000000000000000000000000000000000000000000000000000000000000000000FF00000000000000000000000000000000000000000000000000000000000000;
E : 0000000000000000000000000000000000000000000000000000FF000000000000000000000000000000000000000000000000FF000000000000000000000000000000000000000000000100000000000000000000000000000000000000000000000000FE0001000000000000FF000000000200000000000000010000000300;
F : 0000000000000000000000000000000000000000000000000000000000000000000000000000000000000000000000000000000000000000000000000000000000000000000000000000000000000000000000000000000000000000000000000000000000000000000000000000000000000000000000000000000000000000;
10 : 0000000000000000000000000000000000000000000000000000000000000000000000000000000000000000000000000000000000000000000000000000000012F3000005FD0C000300FAF7FB00F800FF10FB1605F403F80000E9FFFF0000F3F0FEF5FB09030100FB0000EDFF0600020AFD00010EFA0BFFF9EDFC0209000000;
11 : F202E8F7F0F2E4FA0000010A00FC0000000112F5020400FE00F900FF02F400FEFEFE0009FFFA0E00F701FB0B06040800000B1E0304FDFBF900000600FCFEF001FCFFFFFFFA06F500000201FEF8060312F300F40700000000F4F50701020004010200040100FCFA0C1608060300FE00EEFFFD010900000900FD01FF0D091C05FF;
12 : 0000000000000000000000000000000000000000000000000000000000000000000000000000000000000000000000000000000000000000000000000000000000000000000000000000000000000000000000000000000000000000000000000000000000000000000000000000000000000000000000000000000000000000;
13 : 0000000000000000000000000000000000000000000000000000000000000000000000000000000000000000000000000000000000000000000000000000000000000000000000000000000000000000000000000000000000000000000000000000000000000000000000000000000000000000000000000000000000000000;
14 : 0000000000000000000000000000000000000000000000000000000000000000000000000000000000000000000000000000000000000000000000000000000000000000000000000000000000000000000000000000000000000000000000000000000000000000000000000000000000000000000000000000000000000000;
15 : 0000000000000000000000000000000000000000000000000000000000000000000000000000000000000000000000000000000000000000000000000000000000000000000000000000000000000000000000000000000000000000000000000000000000000000000000000000000000000000000000000000000000000000;
16 : 000000000000000000000000000000000000000000000000000000000000000000000000000000000000000000000000000000000000000000000000000000000000070C0700FEFDFF0C0100000300FB0DF9000314241A1904FE09040B0F171310212D040000F3F700FD0F0016150FFF000100FE0202060F00000E0000020200;
17 : 00F8EDFCFAF7051D03000000F7F1E2E8E6F700FEFF00F900FAECF0DEDAECF803F800F900FAF6FDECF4E4E4FEFF010000FCF4DDE4D0CED0EAFBFDF80000FF00F500E0DF0000FD00F300FFF3FD0200EA000300000A000100051414DDDC0004F0FF001619121E04F7F6F10900F3160B090E210206FB020000030B00F10CFA05F100;
18 : FCF7FF00FCF3E8F0F5EFECF406F800FBFE020001EEFE000200FEF8FBF2FF00F2000D0202FAFBF9EBF9FCFCFAFF002203F20000FD000004FA00001201000000FA000000000D091004FCFBF800FF090007190B00FD00FFFFFE0700090E030613FD00FE00000F0D1607181F12FA000000F9020909170F03F8FD00F400FB020E0612;
19 : 15FEF7FFFF000000100B0511FD05F104F50300070000FA00FBFF060F0700000008080A00FF00020300F200FAFC181A000012F900FE00030000000000F2F9F2FA00000000000000000000000000000000000000000000000000000000000000000000000000000000000000000000000000000000000000000000000000000000;
1A : 0000000000000000000000000000000000000000000000000000000000000000000000000000000000000000000000000000000000000000000000000000000000000000000000000000000000000000000000000000000000000000000000000000000000000000000000000000000000000000000000000000000000000000;
1B : 0000000000000000000000000000000000000000000000000000000000000000000000000000000000000000000000000000000000000000000000000000000000000000000000000000000000000000000000000000000000000000000000000000000000000000000000000000000000000000000000000000000000000000;
1C : 0000000000000000000000000000000000000000000000000000000000000000000000000000000000000000000000000000000000000000000000000000000000000000000000000000000000000000000000000000000000000000000000000000000000000000000000000000000000000000000000000000000000000000;
1D : 0000000000000000000000000000000000000000000000000000000000000000000000000000000000000000000000000000000000000000000000000000000000000000000000000000000000000000000000000000000000000000000000000000000000000000000000000000000000000000000000000000000000000000;
1E : 0000000000000000000000000000000000000000000000000000000000000000000000000000000000000000000000000000000000000000000000000000000000000000000000000000000000000000000000000000000000000000000000000000000000000000000000000000000000000000000000000000000000000000;
1F : 0000000000000000000000000000000000000000000000000000000000000000000000000000000000000000000000000000000000000000000000000000000000000000000000000000000000000000000000000000000000000000000000000000000000000000000000000000000000000000000000000000000000000000;
20 : 0000000000000000000000000000000000000000000000000000000000000000000000000000000000000000000000000000000000000000000000000000000000000000000000000000000000000000000000000000000000000000000000000000000000000000000000000000000000000000000000000000000000000000;
21 : 0000000000000000000000000000000000000000000000000000000000000000000000000000000000000000000000000000000000000000000000000000000000000000000000000000000000000000000000000000000000000000000000000000000000000000000000000000000000000000000000000000000000000000;
22 : 0000000000000000000000000000000000000000000000000000000000000000000000000000000000000000000000000000000000000000000000000000000000000000000000000000000000000000000000000000000000000000000000000000000000000000000000000000000000000000000000000000000000000000;
23 : 0000000000000000000000000000000000000000000000000000000000000000000000000000000000000000000000000000000000000000000000000000000000000000000000000000000000000000000000000000000000000000000000000000000000000000000000000000000000000000000000000000000000000000;
24 : 000000000000000000000000000000F8F8F5F7EDFDFCFC010000F4F7F2FF00EBEEEDE101FE020100010202F200ECFD0DF80A0805060000FC0304000000FFFF01000000000812090B000000100903FC0004112406000C00110303FD00000007F2FF00FC040B010A140A0104FE0000FCEEFF0B1302090804E6FDFFFDF1F9010700;
25 : 0201F8F0FF00FBFFFE0600FB00F0EC06FB00FD00EDFDE9F8F0F4E4FC0000F701EEF6F2EDF600F4F600F8FF00F9EE0003F70CFDFCFD00FE0000FB0100FF00FEF100000000000000000000000000000000000000000000000000000000000000000000000000000000000000000000000000000000000000000000000000000000;
26 : 0000000000000000000000000000000000000000000000000000000000000000000000000000000000000000000000000000000000000000000000000000000000000000000000000000000000000000000000000000000000000000000000000000000000000000000000000000000000000000000000000000000000000000;
27 : 0000000000000000000000000000000000000000000000000000000000000000000000000000000000000000000000000000000000000000000000000000000000000000000000000000000000000000000000000000000000000000000000000000000000000000000000000000000000000000000000000000000000000000;
28 : 0000000000000000000000000000000000000000000000000000000000000000000000000000000000000000000000000000000000000000000000000000000000000000000000000000000000000000000000000000000000000000000000000000000000000000000000000000000000000000000000000000000000000000;
29 : 0000000000000000000000000000000000000000000000000000000000000000000000000000000000000000000000000000000000000000000000000000000000000000000000000000000000000000000000000000000000000000000000000000000000000000000000000000000000000000000000000000000000000000;
2A : 000000000000000000000000000300001B191106FCF3020603000000FE001319FF000D1803000201FBFF0308000B04040900F5F4F5FAF2F9DFFB110603100EFEF900FEFAE4F00F08FE00FCF900F7F0EEE4EA00040000000E1C06FDF3EAFE0106000202060500E6D9C8FA0008000000000004F7DED7EE01090001FCFDF3EFFDD0;
2B : D1F700000000060100F8F4F1DBEB041E03080000F70005FD03F9000600000000F9EB0B02FFF405000E0200F9080005170C00F30000FE000F131605050C0002FB00000000000000000000000000000000000000000000000000000000000000000000000000000000000000000000000000000000000000000000000000000000;
2C : 0000000000000000000000000000000000000000000000000000000000000000000000000000000000000000000000000000000000000000000000000000000000000000000000000000000000000000000000000000000000000000000000000000000000000000000000000000000000000000000000000000000000000000;
2D : 0000000000000000000000000000000000000000000000000000000000000000000000000000000000000000000000000000000000000000000000000000000000000000000000000000000000000000000000000000000000000000000000000000000000000000000000000000000000000000000000000000000000000000;
2E : 0000000000000000000000000000000000000000000000000000000000000000000000000000000000000000000000000000000000000000000000000000000000000000000000000000000000000000000000000000000000000000000000000000000000000000000000000000000000000000000000000000000000000000;
2F : 0000000000000000000000000000000000000000000000000000000000000000000000000000000000000000000000000000000000000000000000000000000000000000000000000000000000000000000000000000000000000000000000000000000000000000000000000000000000000000000000000000000000000000;
30 : 05FD0000190E10001004F6EB0609000F131504FE0000FAF7F70001000005110700E1EDF2000000000009F900F700EEFF04FF0000000006FE0103FF0BFBF7FCFDF0F8FFFDE7FEF50AF2EDF6EAF7FF00F0F3EAFC1403FFFFFEFCF4F0EEDAEE00090200FFFCFE0B06EAE6E1000800FCF7F7F100F2FEFE000C10FCFC00FEF5020003;
31 : 0F0F0011F5FFFDFD0805110502130B16FEF6FEFE000D2929210C0D00FCFAFF00F60C011419040D00F7F8FDECFE00100304031E0D00000000000000000000000000000000000000000000000000000000000000000000000000000000000000000000000000000000000000000000000000000000000000000000000000000000;
32 : 0000000000000000000000000000000000000000000000000000000000000000000000000000000000000000000000000000000000000000000000000000000000000000000000000000000000000000000000000000000000000000000000000000000000000000000000000000000000000000000000000000000000000000;
33 : 0000000000000000000000000000000000000000000000000000000000000000000000000000000000000000000000000000000000000000000000000000000000000000000000000000000000000000000000000000000000000000000000000000000000000000000000000000000000000000000000000000000000000000;
34 : 0000000000000000000000000000000000000000000000000000000000000000000000000000000000000000000000000000000000000000000000000000000000000000000000000000000000000000000000000000000000000000000000000000000000000000000000000000000000000000000000000000000000000000;
35 : 0000000000000000000000000000000000000000000000000000000000000000000000000000000000000000000000000000000000000000000000000000000000000000000000000000000000000000000000000000000000000000000000000000000000000000000000000000000000000000000000000000000000000000;
36 : 1007FB0000040100020000010000F1F8F4F200000E000000FFF7F6F1EAF5FCE9EDFEFBFBFE000500FC00FA0000F4EBF700070000FE0000FFECE5E1FD05FC00F4F7FAEE00E9EAE90000030100030000F1F1EEEA0500000000F5FCF6E9E5E0F3000000000000F8F4EBE7EE0007000A03000003F9E8FB01000800050600FEFD00E9;
37 : 00F800000300F5010500E4F3FA000A000004000000000000000000FD000200FDFE00F007FB0000000C000B0006FA01FB00FDFFF00500000C040302220E33130600000000000000000000000000000000000000000000000000000000000000000000000000000000000000000000000000000000000000000000000000000000;
38 : 0000000000000000000000000000000000000000000000000000000000000000000000000000000000000000000000000000000000000000000000000000000000000000000000000000000000000000000000000000000000000000000000000000000000000000000000000000000000000000000000000000000000000000;
39 : 0000000000000000000000000000000000000000000000000000000000000000000000000000000000000000000000000000000000000000000000000000000000000000000000000000000000000000000000000000000000000000000000000000000000000000000000000000000000000000000000000000000000000000;
3A : 00000000000000000000000000000000000000000000000000000000000000000000000000000000000000000000000000000000000000000000000000000000FBFAFF030000F9FAFE000000FB03FFEDF600DFF9EFFD0D0FFA0000EAFDF0EEE9F90102FD00FBF7FFFD02F2FCDCEA131D040D00060000FFEAF2FC221C06040300;
3B : 00E5DDFB1E210F0B0900000000FEFD0313321B1F08FFF500000B00261F29211C0BFE0108FF102B1B21330E01FF0702000C090E0D270000FBFF010019FF07FC2000F1E7F60905000608171F0C0D04EDE307000000060C140E03FAD1FA00FD01000216161901EAF4F1070002060C1B220BEBDCD0DD0301FEF6F3000A000900FC00;
3C : 0000000000000000000000000000000000000000000000000000000000000000000000000000000000000000000000000000000000000000000000000000000000000000000000000000000000000000000000000000000000000000000000000000000000000000000000000000000000000000000000000000000000000000;
3D : 0000000000000000000000000000000000000000000000000000000000000000000000000000000000000000000000000000000000000000000000000000000000000000000000000000000000000000000000000000000000000000000000000000000000000000000000000000000000000000000000000000000000000000;
3E : 0000000000000000000000000000000000000000000000000000000000000000000000000000000000000000000000000000000000000000000000000000000000000000000000000000000000000000000000000000000000000000000000000000000000000000000000000000000000000000000000000000000000000000;
3F : 0000000000000000000000000000000000000000000000000000000000000000000000000000000000000000000000000000000000000000000000000000000000000000000000000000000000000000000000000000000000000000000000000000000000000000000000000000000000000000000000000000000000000000;
40 : 0000000000000000000000000000000000000000000000000000000000000000000000000000000000000000000000000000000000000000000000000000000000000000000000000000000000000000000000000000000000000000000000000000000000000000000000000000000000000000000000000000000000000000;
41 : 0000000000000000000000000000000000000000000000000000000000000000000000000000000000000000000000000000000000000000000000000000000000000000000000000000000000000000000000000000000000000000000000000000000000000000000000000000000000000000000000000000000000000000;
42 : 0000000000000000000000000000000000000000000000000000000000000000000000000000000000000000000000000000000000000000000000000000000000000000000000000000000000000000000000000000000000000000000000000000000000000000000000000000000000000000000000000000000000000000;
43 : 000000000000000000000000000000000000000000000000000000000000000000000000000000000000000000000000000000000000000000000000000000000000050400090000EF00000009F400FF0C00F100F5F802010200110305F3110700F0F4F8020000FE000008F400FC0000010B0006010B0110F3F60000FE010000;
44 : 1901000DEEDA000BF8090000FDF8F0FFE6ECFC0EFCFBF90500FA00FFDBDCEC10000A0D110000F1E9CED4F1F8010102141B1A24FFF0DEF009000000000F000C121D0E0B0F090407FFFF060000FA020D0609FF070007071E17120E2A0F010200FB01010512152B2402FE00FBF1F1F9F11700201F1200F2FEFBFAF2000E0E151E13;
45 : 0000000000000000000000000000000000000000000000000000000000000000000000000000000000000000000000000000000000000000000000000000000000000000000000000000000000000000000000000000000000000000000000000000000000000000000000000000000000000000000000000000000000000000;
46 : 0000000000000000000000000000000000000000000000000000000000000000000000000000000000000000000000000000000000000000000000000000000000000000000000000000000000000000000000000000000000000000000000000000000000000000000000000000000000000000000000000000000000000000;
47 : 0000000000000000000000000000000000000000000000000000000000000000000000000000000000000000000000000000000000000000000000000000000000000000000000000000000000000000000000000000000000000000000000000000000000000000000000000000000000000000000000000000000000000000;
48 : FD0E0506000D0C0100FEF9F2FA06F6FC0000EBEAFFEAEBFD00FF06000200F9FDFBF9E2FB00000002000115000C00DEF200020A0608152F2301EAE900FE000005102924130CF0F908FD000F031D1C1822FCFBF905F3020900F6F8040EFF0F0702FFFEF300E5FFFD1A060925070000F300F9FCEB00001620030404FDFAFFF3FAE2;
49 : FE0B18000001FEFFF3F900F3FB0C1D04000D00F2F4E9DCEAFFFF05FFF90D00ECEEE6F9F6E3000A0AFB0005FFECE5D0D9F305181509F7FFF8FDE7E0DEFE0101FA00000000000000000000000000000000000000000000000000000000000000000000000000000000000000000000000000000000000000000000000000000000;
4A : 0000000000000000000000000000000000000000000000000000000000000000000000000000000000000000000000000000000000000000000000000000000000000000000000000000000000000000000000000000000000000000000000000000000000000000000000000000000000000000000000000000000000000000;
4B : 0000000000000000000000000000000000000000000000000000000000000000000000000000000000000000000000000000000000000000000000000000000000000000000000000000000000000000000000000000000000000000000000000000000000000000000000000000000000000000000000000000000000000000;
4C : 0000000000000000000000000000000000000000000000000000000000000000000000000000000000000000000000000000000000000000000000000000000000000000000000000000000000000000000000000000000000000000000000000000000000000000000000000000000000000000000000000000000000000000;
4D : 0000000000000000000000000000000000000000000000000000000000000000000000000000000000000000000000000000000000000000000000000000000000000000000000000000000000000000000000000000000000000000000000000000000000000000000000000000000000000000000000000000000000000000;
4E : 0005020C08FFFAFC030C110201FF0009000201010E000F140000F5FB00071F14000006FDFB0000FDFFFF0000FA041601000000000008FFFF02FDFD1407000400FC01F8F90300F10600FD00FFFBF7E0FE06E6F5FB05070F04FAF1EAE8F9EE02050500000302F7F6F7F0FE0D0100FFF8F9FBFDF500F5F90400FC0100000002F600;
4F : FFF904000001FD00F9060000FCEAFBF609050101FBFFFC000F0000FA01040A09FDFFFEFDFDFE01FDFE0000000101030CFFE9000008FB00000F040400F9F8000200000000000000000000000000000000000000000000000000000000000000000000000000000000000000000000000000000000000000000000000000000000;
50 : 0000000000000000000000000000000000000000000000000000000000000000000000000000000000000000000000000000000000000000000000000000000000000000000000000000000000000000000000000000000000000000000000000000000000000000000000000000000000000000000000000000000000000000;
51 : 0000000000000000000000000000000000000000000000000000000000000000000000000000000000000000000000000000000000000000000000000000000000000000000000000000000000000000000000000000000000000000000000000000000000000000000000000000000000000000000000000000000000000000;
52 : 0000000000000000000000000000000000000000000000000000000000000000000000000000000000000000000000000000000000000000000000000000000000000000000000000000000000000000000000000000000000000000000000000000000000000000000000000000000000000000000000000000000000000000;
53 : 0000000000000000000000000000000000000000000000000000000000000000000000000000000000000000000000000000000000000000000000000000000000000000000000000000000000000000000000000000000000000000000000000000000000000000000000000000000000000000000000000000000000000000;
54 : 0000000000000000000000000000000000000000000000000000000000000000000000000000000000000000000000000000000000000000000000000000000000000000000000000000000000000000000000000000000000000000000000000000000000000000000000000000000000000000000000000000000000000000;
55 : 0000000000000000000000000000000000000000000000000000000000000000000000000000000000000000000000000000000000000000000000000000000000000000000000000000000000000000000000000000000000000000000000000000000000000000000000000000000000000000000000000000000000000000;
56 : 0000000000000000000000000000000000000000000000000000000000000000000000000000000000000000000000000000000000000000000000000000000000000000000000000000000000000000000000000000000000000000000000000000000000000000000000000000000000000000000000000000000000000000;
57 : 000000000000000000000000000200FDFF00000E06FDF9FCF9F9000D0000F4F70408000000FAFD0600FD08FEFF00F9000300000000010905FEFA00F70000000400FFF905FEFD04F8FF000304FAFFEEFE000000F80305000000000000FAE500F1FEF5FFFF00000005F7FEF800FFFEFDF8F90700FFFFFFFBF900FAF2F0FE0000FF;
58 : FDF5FF00000000F8F702FE00FF000100000304030100F80101FCFD06F1000000FBF70800F901040000FEF7F5F9F2F2F3F5FFF6FD00FBF9F1E1DBE7EBF0FC000100000000000000000000000000000000000000000000000000000000000000000000000000000000000000000000000000000000000000000000000000000000;
59 : 0000000000000000000000000000000000000000000000000000000000000000000000000000000000000000000000000000000000000000000000000000000000000000000000000000000000000000000000000000000000000000000000000000000000000000000000000000000000000000000000000000000000000000;
5A : 00040900F9FD000000FC0E030500F4000600070001000305F6FBFE0000090302F21109F80006FDFF00000405131C0AEBFC020300F9080E0C05F7F9F8FC00FFFDFE00070605F0FF00060604000C0900F6FDE2E80100F80000000101FAEEF3FCFFFF0000000009FDD4E3E7FC07F9000000000C00010113090200020002000DFE05;
5B : FF00FAFA0000000300F4F0E100F30DFC0600040603EBE9DA00FDEFF9040801000803F7021C05FE05FF000302070E01000301000000000000000000000000FA0000000000000000000000000000000000000000000000000000000000000000000000000000000000000000000000000000000000000000000000000000000000;
5C : 0000000000000000000000000000000000000000000000000000000000000000000000000000000000000000000000000000000000000000000000000000000000000000000000000000000000000000000000000000000000000000000000000000000000000000000000000000000000000000000000000000000000000000;
5D : FCF6090000FFFBFC00F70005FFFFFA00000100081217030CF100010204EF0200210016000000000003FD04FD0D060F02000000F6050010F90015000000010EF7000000FA0015080001FC02FF04000000030E1AFF01000AFD01020008FE061A0000050B000C030003000A08FFFD0007010100000008FCFCF6F600000004FEFA0E;
5E : FDEDF8F1FE0000FF0EF700122000F5FE0000FFFF13F4FF0604F9F2000000000C02000B07F9F4F6FFFC0000000E08040400F2F5FEF4FD0BF9000002011000F1F804F5FCF3F9E80010021E13040A00FD000000010B00000610FE000000F3EC001001F70B000000070F04190B1918FAF5FB010600F80007120305F7F00404000000;
5F : 020AFF010001000200FE00EE0201FF180001FA05060000EFFDFD07FDEFF700F800FF05FFFC05000AEAF90005FE0000F5F80003F40000DC07FA000000000AFF04F1F3FB040002FF00F9FAFC00EEF4000DFE00F400F9E7D7D7F70F0B07000007FBFBF8F8F20200FE0003010009000000000005E00200EDFDF3EDF7000700E8E3F0;
60 : 0000000000000000000000000000000000000000000000000000000000000000000000000000000000000000000000000000000000000000000000000000000000000000000000000000000000000000000000000000000000000000000000000000000000000000000000000000000000000000000000000000000000000000;
61 : 0000000000000000000000000000000000000000000000000000000000000000000000000000000000000000000000000000000000000000000000000000000000000000000000000000000000000000000000000000000000000000000000000000000000000000000000000000000000000000000000000000000000000000;
62 : 0000000000000000000000000000000000000000000000000000000000000000000000000000000000000000000000000000000000000000000000000000000000000000000000000000000000000000000000000000000000000000000000000000000000000000000000000000000000000000000000000000000000000000;
63 : 0000000000000000000000000000000000000000000000000000000000000000000000000000000000000000000000000000000000000000000000000000000000000000000000000000000000000000000000000000000000000000000000000000000000000000000000000000000000000000000000000000000000000000;
64 : 0000000000000000000000000000000000000000000000000000000000000000000000000000000000000000000000000000000000000000000000000000000000000000000000000000000000000000000000000000000000000000000000000000000000000000000000000000000000000000000000000000000000000000;
65 : 0000000000000000000000000000000000000000000000000000000000000000000000000000000000000000000000000000000000000000000000000000000000000000000000000000000000000000000000000000000000000000000000000000000000000000000000000000000000000000000000000000000000000000;
66 : 0000000000000000000000000000000000000000000000000000000000000000000000000000000000000000000000000000000000000000000000000000000000000000000000000000000000000000000000000000000000000000000000000000000000000000000000000000000000000000000000000000000000000000;
67 : 0000000000000000000000000000000000000000000000000000000000000000000000000000000000000000000000000000000000000000000000000000000000000000000000000000000000000000000000000000000000000000000000000000000000000000000000000000000000000000000000000000000000000000;
68 : 0000000000000000000000000000000000000000000000000000000000000000000000000000000000000000000000000000000000000000000000000000000000000000000000000000000000000000000000000000000000000000000000000000000000000000000000000000000000000000000000000000000000000000;
69 : 0000000000000000000000000000000000000000000000000000000000000000000000000000000000000000000000000000000000000000000000000000000000000000000000000000000000000000000000000000000000000000000000000000000000000000000000000000000000000000000000000000000000000000;
6A : 0000000000000000000000000000000000000000000000000000000000000000000000000000000000000000000000000000000000000000000000000000000000000000000000000000000000000000000000000000000000000000000000000000000000000000000000000000000000000000000000000000000000000000;
6B : 0000000000000000000000000000000000000000000000000000000000000000000000000000000000000000000000000000000000000000000000000000000000000000000000000000000000000000000000000000000000000000000000000000000000000000000000000000000000000000000000000000000000000000;
6C : 0000000000000000000000000000000000000000000000000000000000000000000000000000000000000000000000000000000000000000000000000000000000000000000000000000000000000000000000000000000000000000000000000000000000000000000000000000000000000000000000000000000000000000;
6D : 00000000000000000000000000000000000000000000000000000000000000000000000000000000000000000000000000000000000000000000000000000000000000FDF9FBF5000000000100000000000000000100000000000000000000000100000000000000000000000300000000000000000000000000010000000000;
6E : 0000000100000000000000000000000000FE00000000000000000000000000000000000000000000FF000000000000000000000000000000000000000000000000000000000000000000010000000000000000000000000000FF0000000000000000000000000000000000000000000000FEFDFE0000000000000000000001FC;
6F : 0000000000000000000000000000000000000000000000000000000000000000000000000000000000000000000000000000000000000000000000000000000000000000000000000000000000000000000000000000000000000000000000000000000000000000000000000000000000000000000000000000000000000000;
70 : 0000000000000000000000000000000000000000000000000000000000000000000000000000000000000000000000000000000000000000000000000000000000FCFBFF062AFAFADBE7E8190A00FE02F8000C0C022305060000081004050B061F20191100FA0300000E1E1B420C1E0000FEF70C000007334B37210E00000EFF;
71 : F9010F2D3A11000002F9F700F8F2FE1E0900E4F80000EA0B00F9132306EEE6FEFE00FF00F300051EFAF6F200FE00FCF1FCE9000FFC0001130900090500240E010AFA000CF700FAFB040B07061A0000FE0C0A050917070E080CE202FF0C00000506FE0406FCE6F7E7000F05010D04FEFB0AEFDCF3000AFCFDEE00FBF6EEE2F100;
72 : 0000000000000000000000000000000000000000000000000000000000000000000000000000000000000000000000000000000000000000000000000000000000000000000000000000000000000000000000000000000000000000000000000000000000000000000000000000000000000000000000000000000000000000;
73 : 0000000000000000000000000000000000000000000000000000000000000000000000000000000000000000000000000000000000000000000000000000000000000000000000000000000000000000000000000000000000000000000000000000000000000000000000000000000000000000000000000000000000000000;
74 : 0000000000000000000000000000000000000000000000000000000000000000000000000000000000000000000000000000000000000000000000000000000000000000000000000000000000000000000000000000000000000000000000000000000000000000000000000000000000000000000000000000000000000000;
75 : 0000000000000000000000000000000000000000000000000000000000000000000000000000000000000000000000000000000000000000000000000000000000000000000000000000000000000000000000000000000000000000000000000000000000000000000000000000000000000000000000000000000000000000;
76 : 0000000000000000000000000000000000000000000000000000000000000000000000000000000000000000000000000000000000000000000000000000000000EB00FCFDFB28253D1C030002000013100A1715262BE7EF0301001103FE09183702DFE9000000000E00F41D1E15F4FD000000F6FEF40918422E00FE02FDFC0E;
77 : 00EA1212150B08F80900F60B00F3162C1600F6F3070000F1F8F20108F6F3F5FB00FC00000000160CF800FFF20BF7FE0006EB010EE5DD00FD06FCFFF5F50002FAE2F500F401000001EDF2F4F7EBF6FF00FA0004FBFAE8FCF6CDD600FD0B0B00FC00EE05F5B3D400FE03F9F1F7F6F60504EAF1FD00F80100F8FF1E200008FAE2D4;
78 : 00000200FFF9F014050400EFF100000001FF00F5042704FAFDFE0602F9FB09241DFAD3FF00F6040000000E0A00F5E3E800F7F9F8FAF200F6F9FBFFED0E000000030000000106FCF70EFF08010500FD001B0DF0ED00000500FEF9F8F800F0E2FB0600000F0800EAFCF9ECE2FA0000001200F9F000FAF5FC00FD000000F2ECE8E8;
79 : FCE6F40000FD01F7EEF800F700000006F7F0FFF6FDF4FE00F7FA0B0000FF00FF0100FBEFF4F10D1200FD080A00FFFAFA00FE172214F80A110309000F0200FA0100000000000000000000000000000000000000000000000000000000000000000000000000000000000000000000000000000000000000000000000000000000;
7A : 0000000000000000000000000000000000000000000000000000000000000000000000000000000000000000000000000000000000000000000000000000000000000000000000000000000000000000000000000000000000000000000000000000000000000000000000000000000000000000000000000000000000000000;
7B : 0000000000000000000000000000000000000000000000000000000000000000000000000000000000000000000000000000000000000000000000000000000000000000000000000000000000000000000000000000000000000000000000000000000000000000000000000000000000000000000000000000000000000000;
7C : 0000000000000000000000000000000000000000000000000000000000000000000000000000000000000000000000000000000000000000000000000000000000000000000000000000000000000000000000000000000000000000000000000000000000000000000000000000000000000000000000000000000000000000;
7D : 0000000000000000000000000000000000000000000000000000000000000000000000000000000000000000000000000000000000000000000000000000000000000000000000000000000000000000000000000000000000000000000000000000000000000000000000000000000000000000000000000000000000000000;
7E : 0000000000000000000000000000000000000000000000000000000000000000000000000000000000000000000000000000000000000000000000000000000000000000000000000000000000000000000000000000000000000000000000000000000000000000000000000000000000000000000000000000000000000000;
7F : 0000000000000000000000000000000000000000000000000000000000000000000000000000000000000000000000000000000000000000000000000000000000000000000000000000000000000000000000000000000000000000000000000000000000000000000000000000000000000000000000000000000000000000;
80 : 0000000000000000000000000000000000000000000000000000000000000000000000000000000000000000000000000000000000000000000000000000000000000000000000000000000000000000000000000000000000000000000000000000000000000000000000000000000000000000000000000000000000000000;
81 : 0000000000000000000000000000000000000000000000000000000000000000000000000000000000000000000000000000000000000000000000000000000000000000000000000000000000000000000000000000000000000000000000000000000000000000000000000000000000000000000000000000000000000000;
82 : 0000000000000000000000000000000000000000000000000000000000000000000000000000000000000000000000000000000000000000000000000000000000000000000000000000000000000000000000000000000000000000000000000000000000000000000000000000000000000000000000000000000000000000;
83 : 0000000000000000000000000000000000000000000000000000000000000000000000000000000000000000000000000000000000000000000000000000000000000000000000000000000000000000000000000000000000000000000000000000000000000000000000000000000000000000000000000000000000000000;
84 : 0000000000000000000000000B02F3FD07FF01ECE1FEC6C9FEFBFCF802001E080413FE000300040007050518421608FF00000000F9020815291A3110100000FEEEF9EE00FF192408FEFF0300F5E5E0F4F70C1E01FFFF00F5EFF4FD0803FB0400000000FDFFFAFD05110F02F2FC000008F70009202A1600F1FFFF0A0000000008;
85 : 260C090000FF00FFF405FF090B351C01FFFFF8FB060907FF021D1802FF00F7FFFF00030108160B0D0000E500000E0800FCF5FB000E00000200F1FFE4D1DCFD2600000000000000000000000000000000000000000000000000000000000000000000000000000000000000000000000000000000000000000000000000000000;
86 : 0000000000000000000000000000000000000000000000000000000000000000000000000000000000000000000000000000000000000000000000000000000000000000000000000000000000000000000000000000000000000000000000000000000000000000000000000000000000000000000000000000000000000000;
87 : 0000000000000000000000000000000000000000000000000000000000000000000000000000000000000000000000000000000000000000000000000000000000000000000000000000000000000000000000000000000000000000000000000000000000000000000000000000000000000000000000000000000000000000;
88 : 0000000000000000000000000000000000000000000000000000000000000000000000000000000000000000000000000000000000000000000000000000000000000000000000000000000000000000000000000000000000000000000000000000000000000000000000000000000000000000000000000000000000000000;
89 : 0000000000000000000000000000000000000000000000000000000000000000000000000000000000000000000000000000000000000000000000000000000000000000000000000000000000000000000000000000000000000000000000000000000000000000000000000000000000000000000000000000000000000000;
8A : 0000000000000000000000000002FCFAED00FF0C27484510FDF6F9F8FC05FE011200FFE400FCFAF6FEFEF70611FDD7E6FCFFFE00FF0008041404DDFDF5FAFCFAF3F0FF0A0A15EAF401F5F5060A0207282404EFF402FFF80000120D0D0800F30001FAF800000C1400E2E7EBE8FAFEF6F6FE00F8FDE8DFEB0002010900FEFDF7F6;
8B : DCEFF7000106FF03FFFFEEEBE1FCE9EC00070309070CFEEEE6DF00000005FBFE02FAF9F8EBD9F8FF0000FE0C00FFFBFCFDFB000B0707FFF0E8EFFF020A31202800000000000000000000000000000000000000000000000000000000000000000000000000000000000000000000000000000000000000000000000000000000;
8C : 0000000000000000000000000000000000000000000000000000000000000000000000000000000000000000000000000000000000000000000000000000000000000000000000000000000000000000000000000000000000000000000000000000000000000000000000000000000000000000000000000000000000000000;
8D : 0000000000000000000000000000000000000000000000000000000000000000000000000000000000000000000000000000000000000000000000000000000000000000000000000000000000000000000000000000000000000000000000000000000000000000000000000000000000000000000000000000000000000000;
8E : 0000000000000000000000000000000000000000000000000000000000000000000000000000000000000000000000000000000000000000000000000000000000000000000000000000000000000000000000000000000000000000000000000000000000000000000000000000000000000000000000000000000000000000;
8F : 0000000000000000000000000000000000000000000000000000000000000000000000000000000000000000000000000000000000000000000000000000000000000000000000000000000000000000000000000000000000000000000000000000000000000000000000000000000000000000000000000000000000000000;
90 : FBFDF5F5F000EE240E010A0400050000F500123A39485E0D00F500001A04FCFE003C220C0400F1F6FD0B16E0F70E42110003000006190200F4FE01E7000000011405FB000200F1EF0500E101030002030109090400FAFB0000EEDEE6F30A0100FCFEFA0000F9F1E5EF0000FA0000FB0100F4F4F8E1FBFE060901FDFEFA02F8F5;
91 : FD210D05FB03000000FD00FFF2F2FA00F50B0001FF0000F1FF00F3F1070401020AF7F8120900FF0001020317FAE3ED0000FEFF1400000000000000000000000000000000000000000000000000000000000000000000000000000000000000000000000000000000000000000000000000000000000000000000000000000000;
92 : 0000000000000000000000000000000000000000000000000000000000000000000000000000000000000000000000000000000000000000000000000000000000000000000000000000000000000000000000000000000000000000000000000000000000000000000000000000000000000000000000000000000000000000;
93 : 0000000000000000000000000000000000000000000000000000000000000000000000000000000000000000000000000000000000000000000000000000000000000000000000000000000000000000000000000000000000000000000000000000000000000000000000000000000000000000000000000000000000000000;
94 : 0000000000000000000000000000000000000000000000000000000000000000000000000000000000000000000000000000000000000000000000000000000000000000000000000000000000000000000000000000000000000000000000000000000000000000000000000000000000000000000000000000000000000000;
95 : 0000000000000000000000000000000000000000000000000000000000000000000000000000000000000000000000000000000000000000000000000000000000000000000000000000000000000000000000000000000000000000000000000000000000000000000000000000000000000000000000000000000000000000;
96 : 00000000001E0004020000FA0400001700000400FBD2BAE000FD0100050402FFFBCFE30E00F8F50A00090E0000E1EC000000001500FF00F4E2F70B05FF00010A00020400E8F2FF0000FF0000020C0000D5EF00000000000001030700FA0000FBFA00FD000D1300000000020C00FC000100000004020000050000070016080009;
97 : 01F9F903FF000000010D0B01010A00090000000605000D00FAF60000FD0000FCEE0000F1E7CFF800FB0000FB0E00F8FECCE2EBEBF8FBF9F8EEFDF2DFD1D2D6F300000000000000000000000000000000000000000000000000000000000000000000000000000000000000000000000000000000000000000000000000000000;
98 : 0000000000000000000000000000000000000000000000000000000000000000000000000000000000000000000000000000000000000000000000000000000000000000000000000000000000000000000000000000000000000000000000000000000000000000000000000000000000000000000000000000000000000000;
99 : 0000000000000000000000000000000000000000000000000000000000000000000000000000000000000000000000000000000000000000000000000000000000000000000000000000000000000000000000000000000000000000000000000000000000000000000000000000000000000000000000000000000000000000;
9A : 00000000000000000000000000000000000000000000000000000000000000000000000000000000000000000000000000000000000000000000000000000000FAFF0008FE0BFEDFA881E00B00F90A1001FF0AE1CADAC519EF0401000605F8FA00071C000009000018F1FBF1273D23FDFB080106000206302A2B1A0408010A0B;
9B : 001A090525291A1100FA0E02FE03FD03241D0717FB00F90B0000160000061911F8FEFAF5F4030EF2EF000C12FB00F600FFFA0406F9FFFF13F600040206FB04FDFA0907041017150600FC00081D14170514FD00FFE7F9EFF5000A070FFDFAFF0100ECEFEFF515211BEEF0FF00F4FDFCF1F9F40000000C20130001FAE1E2DCFFE3;
9C : 0000000000000000000000000000000000000000000000000000000000000000000000000000000000000000000000000000000000000000000000000000000000000000000000000000000000000000000000000000000000000000000000000000000000000000000000000000000000000000000000000000000000000000;
9D : 0000000000000000000000000000000000000000000000000000000000000000000000000000000000000000000000000000000000000000000000000000000000000000000000000000000000000000000000000000000000000000000000000000000000000000000000000000000000000000000000000000000000000000;
9E : 0000000000000000000000000000000000000000000000000000000000000000000000000000000000000000000000000000000000000000000000000000000000000000000000000000000000000000000000000000000000000000000000000000000000000000000000000000000000000000000000000000000000000000;
9F : 0000000000000000000000000000000000000000000000000000000000000000000000000000000000000000000000000000000000000000000000000000000000000000000000000000000000000000000000000000000000000000000000000000000000000000000000000000000000000000000000000000000000000000;
A0 : 0000000000000000000000000000000000000000000000000000000000000000000000000000000000000000000000000000000000000000000000000000000000000000000000000000000000000000000000000000000000000000000000000000000000000000000000000000000000000000000000000000000000000000;
A1 : 0000000000000000000000000000000000000000000000000000000000000000000000000000000000000000000000000000000000000000000000000000000000000000000000000000000000000000000000000000000000000000000000000000000000000000000000000000000000000000000000000000000000000000;
A2 : 0000000000000000000000000000000000000000000000000000000000000000000000000000000000000000000000000000000000000000000000000000000000000000000000000000000000000000000000000000000000000000000000000000000000000000000000000000000000000000000000000000000000000000;
A3 : 00000000000000000000000000000000000000000000000000000000000000000000000000000000000000000000000000000000000000000000000000000000FE000000FBFD0C0000ECFCEC01000E0C05F7001A445A4705F90FF6000203FB000D3E2D01FC090000190C000FE51C2D00F5F4F30005FF0301E2022412FB000000;
A4 : 0002FEF200060FFE00FD01FBF300FBE806000A030601F1F6F704F5EBF2EDF3060500FD00FF0CFAEBF9E6ECF600000EFF08000102F9D1E6EF00F9FC010000000001DAE5020EF600050B0A0FFF00D6EAE600FA09FC01000000F8E2E8F6FF151101080A0F05F9E7ECED03001009140C1E261F0220220001F9070005F902E1C2E201;
A5 : 0000000000000000000000000000000000000000000000000000000000000000000000000000000000000000000000000000000000000000000000000000000000000000000000000000000000000000000000000000000000000000000000000000000000000000000000000000000000000000000000000000000000000000;
A6 : 0000000000000000000000000000000000000000000000000000000000000000000000000000000000000000000000000000000000000000000000000000000000000000000000000000000000000000000000000000000000000000000000000000000000000000000000000000000000000000000000000000000000000000;
A7 : 0000000000000000000000000000000000000000000000000000000000000000000000000000000000000000000000000000000000000000000000000000000000000000000000000000000000000000000000000000000000000000000000000000000000000000000000000000000000000000000000000000000000000000;
A8 : 0100080806F11F3A24380E2BF6F90009FFF70C000F472C0FFC04F6030404E2F3FC1227000300F7F90508E1B0A2CCF6FD000400F900F7DFB8B1DEDEFFFF04FA0202F1E8CCCDCCE30500FDFA0003FFFCE7E70101FA01FCF6F506F400F5F6FDF1FE0802FF02040006020C10050A04FFF50000000DFF18190404F1F0F7F8FAFB0119;
A9 : 08FF0510FCFEF600010506110F04000309FB00180C0F150509F3E5F003FE10060200001B1009F808FAFB000701060007000AF71509FD070F1F0C212100E9FE0D00000000000000000000000000000000000000000000000000000000000000000000000000000000000000000000000000000000000000000000000000000000;
AA : 0000000000000000000000000000000000000000000000000000000000000000000000000000000000000000000000000000000000000000000000000000000000000000000000000000000000000000000000000000000000000000000000000000000000000000000000000000000000000000000000000000000000000000;
AB : 0000000000000000000000000000000000000000000000000000000000000000000000000000000000000000000000000000000000000000000000000000000000000000000000000000000000000000000000000000000000000000000000000000000000000000000000000000000000000000000000000000000000000000;
AC : 0000000000000000000000000000000000000000000000000000000000000000000000000000000000000000000000000000000000000000000000000000000000000000000000000000000000000000000000000000000000000000000000000000000000000000000000000000000000000000000000000000000000000000;
AD : 0000000000000000000000000000000000000000000000000000000000000000000000000000000000000000000000000000000000000000000000000000000000000000000000000000000000000000000000000000000000000000000000000000000000000000000000000000000000000000000000000000000000000000;
AE : 0300000100FD0113161C10181B12060202F0F1FFF30AF0CEFCFEFAFB00D7F0F3F2FDF50600FE0600EBE303F1F1D3F9FC0D0810000106030006EAF510F4FF0500FDFE000501F50018FB0000000BFE0016F3FEF9050D0500FE1A08FD00FCF7F40800FDF9EE06000E0F0403FE04120401F600FAFF0404FAF11B1100FCFAFEFC00FE;
AF : F9FAF40E0400FBF71104FC00F2EAFD03FAFEF2FDFF041313FDE40E0EFF0800000005231FFEF0021302000006F8F6F3FBEDEF07161D231FFFEBCDCEEBFF0400DA00000000000000000000000000000000000000000000000000000000000000000000000000000000000000000000000000000000000000000000000000000000;
B0 : 0000000000000000000000000000000000000000000000000000000000000000000000000000000000000000000000000000000000000000000000000000000000000000000000000000000000000000000000000000000000000000000000000000000000000000000000000000000000000000000000000000000000000000;
B1 : 0000000000000000000000000000000000000000000000000000000000000000000000000000000000000000000000000000000000000000000000000000000000000000000000000000000000000000000000000000000000000000000000000000000000000000000000000000000000000000000000000000000000000000;
B2 : 0000000000000000000000000000000000000000000000000000000000000000000000000000000000000000000000000000000000000000000000000000000000000000000000000000000000000000000000000000000000000000000000000000000000000000000000000000000000000000000000000000000000000000;
B3 : 0000000000000000000000000000000000000000000000000000000000000000000000000000000000000000000000000000000000000000000000000000000000000000000000000000000000000000000000000000000000000000000000000000000000000000000000000000000000000000000000000000000000000000;
B4 : 0000000000000000000000000000000000000000000000000000000000000000000000000000000000000000000000000000000000000000000000000000000000000000000000000000000000000000000000000000000000000000000000000000000000000000000000000000000000000000000000000000000000000000;
B5 : 0000000000000000000000000000000000000000000000000000000000000000000000000000000000000000000000000000000000000000000000000000000000000000000000000000000000000000000000000000000000000000000000000000000000000000000000000000000000000000000000000000000000000000;
B6 : 0000000000000000000000000000000000000000000000000000000000000000000000000000000000000000000000000000000000000000000000000000000000000000000000000000000000000000000000000000000000000000000000000000000000000000000000000000000000000000000000000000000000000000;
B7 : 000000000000000000000000FF00FBFEF4F500DAC8F3FEEEFB0000EEF2FA00F6F7E8F6FD0B0000FF00F3001008111313030000F700051604011101011000000006161511001201060100FEF80700030D02000001FFFE000000090BFFF2F7F9FE09030406FB0A0CFBEAFFFBF6F900FAF8F50006FF000D030000120000000000FD;
B8 : 041FFEF80006FC04FAFAF9FD012C08FC0001000000F5F6F8FF0B19FEFD00000004FCE70008021EFB000D000304FFF8DEE8EAF60000FD000800151500F8EA000000000000000000000000000000000000000000000000000000000000000000000000000000000000000000000000000000000000000000000000000000000000;
B9 : 0000000000000000000000000000000000000000000000000000000000000000000000000000000000000000000000000000000000000000000000000000000000000000000000000000000000000000000000000000000000000000000000000000000000000000000000000000000000000000000000000000000000000000;
BA : FD0000FF00F8EAFEF4E5CBF2FA000700F60900E1E1E2E1EF0218060502090D0E0000E80000FD00030A15020000F0E221F5F2F7FF0000E5E7EEE4DE020C03000C1419F7EA0000E20BFE000417020300EAE0F1E2000504FF050D120F080705FDFF030007120C00FF0E0302FE00F1FB000F0800080C07090013000000040B00090E;
BB : 02011A1EF600F4FA00000008000D0D09000000000207FF13F705041AF9FFFBF40500000AFE051602FF020700F6F508010C31110CFDFF0A000A0205000000000000000000000000000000000000000000000000000000000000000000000000000000000000000000000000000000000000000000000000000000000000000000;
BC : 0000000000000000000000000000000000000000000000000000000000000000000000000000000000000000000000000000000000000000000000000000000000000000000000000000000000000000000000000000000000000000000000000000000000000000000000000000000000000000000000000000000000000000;
BD : 00000000F900F9030000F6EE00F5FEE3F6ECFFFE001EEB050303F3EC00021729261DE0FE0000F20001090A202306F4E700FDEB01030000160500EE0000FCFB0F00F300FF09FC040100050101F9FE10FF120AFFF9000800000000FEFF0818F2F2040000000400EFEB060AFDF500FD00FE0800FAFC08000200FAFD00F8F9F7ECF2;
BE : 000400FEFFFF00000000F8F0F80002EEFFFF05FAF400E2F6F518FE0000FD01F8F5F4F9FDF7261103010006F9F0F7EDFEEF190C05000C090006FEF6F2E3F80200F7FFEFF9FCF8E5C8A3A3CCF1FE0A0A000D1AFECCDAC4C60A03000900060014FCF2D6A6E80000F40305FE03F9CEE4D9DCFD00F6000E00EFFFD3EAFF000402FC07;
BF : 08F7F6F1F4EB0200040608090000FDE8F2000D0E0A10FF080B0900F9140000F60D000103020000F60000FC1A030001120000FCDE070DF70005000000160B00FCFE0000FB00000000080C09060E0300F80000F400010700FCE3F206FDFDF700FF0002FCE3E100F2F7001100FBFA00F3ECF3FB1B09F9070C01FD0604E0D6F205F0;
C0 : 0000000000000000000000000000000000000000000000000000000000000000000000000000000000000000000000000000000000000000000000000000000000000000000000000000000000000000000000000000000000000000000000000000000000000000000000000000000000000000000000000000000000000000;
C1 : 0000000000000000000000000000000000000000000000000000000000000000000000000000000000000000000000000000000000000000000000000000000000000000000000000000000000000000000000000000000000000000000000000000000000000000000000000000000000000000000000000000000000000000;
C2 : 0000000000000000000000000000000000000000000000000000000000000000000000000000000000000000000000000000000000000000000000000000000000000000000000000000000000000000000000000000000000000000000000000000000000000000000000000000000000000000000000000000000000000000;
C3 : 0000000000000000000000000000000000000000000000000000000000000000000000000000000000000000000000000000000000000000000000000000000000000000000000000000000000000000000000000000000000000000000000000000000000000000000000000000000000000000000000000000000000000000;
C4 : 0000000000000000000000000000000000000000000000000000000000000000000000000000000000000000000000000000000000000000000000000000000000000000000000000000000000000000000000000000000000000000000000000000000000000000000000000000000000000000000000000000000000000000;
C5 : 0000000000000000000000000000000000000000000000000000000000000000000000000000000000000000000000000000000000000000000000000000000000000000000000000000000000000000000000000000000000000000000000000000000000000000000000000000000000000000000000000000000000000000;
C6 : 0000000000000000000000000000000000000000000000000000000000000000000000000000000000000000000000000000000000000000000000000000000000000000000000000000000000000000000000000000000000000000000000000000000000000000000000000000000000000000000000000000000000000000;
C7 : 0000000000000000000000000000000000000000000000000000000000000000000000000000000000000000000000000000000000000000000000000000000000000000000000000000000000000000000000000000000000000000000000000000000000000000000000000000000000000000000000000000000000000000;
C8 : 0000000000000000000000000000000000000000000000000000000000000000000000000000000000000000000000000000000000000000000000000000000000000000000000000000000000000000000000000000000000000000000000000000000000000000000000000000000000000000000000000000000000000000;
C9 : 0000000000000000000000000000000000000000000000000000000000000000000000000000000000000000000000000000000000000000000000000000000000000000000000000000000000000000000000000000000000000000000000000000000000000000000000000000000000000000000000000000000000000000;
CA : 0000000000000000000000000000000000000000000000000000000000000000000000000000000000000000000000000000000000000000000000000000000000000000000000000000000000000000000000000000000000000000000000000000000000000000000000000000000000000000000000000000000000000000;
CB : 0000000000000000000000000000000000000000000000000000000000000000000000000000000000000000000000000000000000000000000000000000000000000000000000000000000000000000000000000000000000000000000000000000000000000000000000000000000000000000000000000000000000000000;
CC : 0000000000000000000000000000000000000000000000000000000000000000000000000000000000000000000000000000000000000000000000000000000000000000000000000000000000000000000000000000000000000000000000000000000000000000000000000000000000000000000000000000000000000000;
CD : 00000000000000000000000000000000000000000000000000000000000000000000000000000000000000000000000000000000000000000000000000000000000000000000FD000000000000000000000000000200000000000000000000000000000000000000000000000000000000000000000000000000000000000000;
CE : 000000060000000000000000000000000000000000000000000000000000000000000000000000000000000000000000000000000000000000000000000000000000000000000000000000000000000000000000000000000000000000000000000000010500000000000000000000000000000000000000000000000000FE00;
CF : 0000000000000000000000000000000000000000000000000000000000000000000000000000000000000000000000000000000000000000000000000000000000000000000000000000000000000000000000000000000000000000000000000000000000000000000000000000000000000000000000000000000000000000;
D0 : 0000000000000000000000000000000000000000000000000000000000000000000000000000000000000000000000000000000000000000000000000000000000FB0102090A19061E00F7F60A000103F800FB0D260D10FC00FF0100FF0608101E1403F3000000FFFFF9F90000FCF800000000FDF314000215170900FFF8FF00;
D1 : 09F50F18001201FD00000000FA0C1A0F1F01F10A00000000120307FC09F70011FFFF00000E00000000FBF3030004000901F6FAFFF5F404000E03010000FDF9DDEDF6000000F4F800F900FDF3F3FE030600000100FE00F9F5FB03FF03030105000D03FD00060001000200070CFF00FAF3ED000E050000030203E6F2EEF8000CFA;
D2 : 0000000000000000000000000000000000000000000000000000000000000000000000000000000000000000000000000000000000000000000000000000000000000000000000000000000000000000000000000000000000000000000000000000000000000000000000000000000000000000000000000000000000000000;
D3 : 0000000000000000000000000000000000000000000000000000000000000000000000000000000000000000000000000000000000000000000000000000000000000000000000000000000000000000000000000000000000000000000000000000000000000000000000000000000000000000000000000000000000000000;
D4 : 0000000000000000000000000000000000000000000000000000000000000000000000000000000000000000000000000000000000000000000000000000000000000000000000000000000000000000000000000000000000000000000000000000000000000000000000000000000000000000000000000000000000000000;
D5 : 0000000000000000000000000000000000000000000000000000000000000000000000000000000000000000000000000000000000000000000000000000000000000000000000000000000000000000000000000000000000000000000000000000000000000000000000000000000000000000000000000000000000000000;
D6 : 0000000000000000000000000000000000000000000000000000000000000000000000000000000000000000000000000000000000000000000000000000000000FE0000F9F5FDF6100000010000FE00FA070B0402041F0500040100FF0000041619160101000000FE0010000E052406FD02F9000000FF0006001A03FFFAFCF6;
D7 : F9FD00FEFBFBFEF80006FAFAFC000A0B02040D050005000008000103101D07060001000205020805041300F5000A0701011111110200F1FF0000050000000600F8FBF4EC00010005090700FBFFF2F4F7F409000000000001F7000403FB020000F8F8F4E1F8131D0E00000C00FFFFFEF80F112305FF00000002000000FF070F13;
D8 : FD000001000200FE040301030200FF0000FC0203050C0D000100FC00F900E8000620190000000000000509F8000202010000000000FF0000FC000800000000000000FCF5F90300FF000002FC0000FEFBFFFC00080000020000F903F30005080900000400F9000000170A0A00000000FE00000200FE010000000000F500000000;
D9 : FD00FEF1030001000400FE00FFF9F2E700000000FF090C01020C0001010C000103090100E9FDF8EE000600FCFBFAFCFD00EDEDF5FC0000FE000000FD00F2000000000000000000000000000000000000000000000000000000000000000000000000000000000000000000000000000000000000000000000000000000000000;
DA : 0000000000000000000000000000000000000000000000000000000000000000000000000000000000000000000000000000000000000000000000000000000000000000000000000000000000000000000000000000000000000000000000000000000000000000000000000000000000000000000000000000000000000000;
DB : 0000000000000000000000000000000000000000000000000000000000000000000000000000000000000000000000000000000000000000000000000000000000000000000000000000000000000000000000000000000000000000000000000000000000000000000000000000000000000000000000000000000000000000;
DC : 0000000000000000000000000000000000000000000000000000000000000000000000000000000000000000000000000000000000000000000000000000000000000000000000000000000000000000000000000000000000000000000000000000000000000000000000000000000000000000000000000000000000000000;
DD : 0000000000000000000000000000000000000000000000000000000000000000000000000000000000000000000000000000000000000000000000000000000000000000000000000000000000000000000000000000000000000000000000000000000000000000000000000000000000000000000000000000000000000000;
DE : 0000000000000000000000000000000000000000000000000000000000000000000000000000000000000000000000000000000000000000000000000000000000000000000000000000000000000000000000000000000000000000000000000000000000000000000000000000000000000000000000000000000000000000;
DF : 0000000000000000000000000000000000000000000000000000000000000000000000000000000000000000000000000000000000000000000000000000000000000000000000000000000000000000000000000000000000000000000000000000000000000000000000000000000000000000000000000000000000000000;
E0 : 0000000000000000000000000000000000000000000000000000000000000000000000000000000000000000000000000000000000000000000000000000000000000000000000000000000000000000000000000000000000000000000000000000000000000000000000000000000000000000000000000000000000000000;
E1 : 0000000000000000000000000000000000000000000000000000000000000000000000000000000000000000000000000000000000000000000000000000000000000000000000000000000000000000000000000000000000000000000000000000000000000000000000000000000000000000000000000000000000000000;
E2 : 0000000000000000000000000000000000000000000000000000000000000000000000000000000000000000000000000000000000000000000000000000000000000000000000000000000000000000000000000000000000000000000000000000000000000000000000000000000000000000000000000000000000000000;
E3 : 0000000000000000000000000000000000000000000000000000000000000000000000000000000000000000000000000000000000000000000000000000000000000000000000000000000000000000000000000000000000000000000000000000000000000000000000000000000000000000000000000000000000000000;
E4 : 000000000000000000000000F90007010002FF00FAE600FFFD0307F7060000F60E020900000100FC00FEF5EDE600080A0000FEFCFEF1F3F8D3FAF100FA030000FF0100FBF5E6F7FEFD07030000F9FF00FB040DF5FF0000F70001FF00FE0A02FD000000FF00050A0E1C080501FFFE00000000121402000E0FFBF6000007020320;
E5 : 1515210600FFF7FF0400030E00FB00FD03FD000001000E0EFEEADE000004FE0700FF01FEFCEDEBFD0201FD000500FD01FFF0F6010100000000090108100916FF00000000000000000000000000000000000000000000000000000000000000000000000000000000000000000000000000000000000000000000000000000000;
E6 : 0000000000000000000000000000000000000000000000000000000000000000000000000000000000000000000000000000000000000000000000000000000000000000000000000000000000000000000000000000000000000000000000000000000000000000000000000000000000000000000000000000000000000000;
E7 : 0000000000000000000000000000000000000000000000000000000000000000000000000000000000000000000000000000000000000000000000000000000000000000000000000000000000000000000000000000000000000000000000000000000000000000000000000000000000000000000000000000000000000000;
E8 : 0000000000000000000000000000000000000000000000000000000000000000000000000000000000000000000000000000000000000000000000000000000000000000000000000000000000000000000000000000000000000000000000000000000000000000000000000000000000000000000000000000000000000000;
E9 : 0000000000000000000000000000000000000000000000000000000000000000000000000000000000000000000000000000000000000000000000000000000000000000000000000000000000000000000000000000000000000000000000000000000000000000000000000000000000000000000000000000000000000000;
EA : 00000000000000000000000002000000F8FEFC020503FA020000FFFEFAFC0000EDFE0011FEFB0000FDF8030C00F703F5FF0004060A08132306F8FAFCFE000100001213310E00000303020805010000060000F8F80E0600FE000001F5F0F9060100FFFAFA0001030000F9000AFF00000503FF000000E5FC000000000200000108;
EB : E8ED0014FFFAFF0000F9FCF0E7FE04120600010606000200F216220300FBFBF7FA0A00F9FC1C1D02F9FB000002080405122516FA00000D0C00FBFD06141500F000000000000000000000000000000000000000000000000000000000000000000000000000000000000000000000000000000000000000000000000000000000;
EC : 0000000000000000000000000000000000000000000000000000000000000000000000000000000000000000000000000000000000000000000000000000000000000000000000000000000000000000000000000000000000000000000000000000000000000000000000000000000000000000000000000000000000000000;
ED : 0000000000000000000000000000000000000000000000000000000000000000000000000000000000000000000000000000000000000000000000000000000000000000000000000000000000000000000000000000000000000000000000000000000000000000000000000000000000000000000000000000000000000000;
EE : 0000000000000000000000000000000000000000000000000000000000000000000000000000000000000000000000000000000000000000000000000000000000000000000000000000000000000000000000000000000000000000000000000000000000000000000000000000000000000000000000000000000000000000;
EF : 0000000000000000000000000000000000000000000000000000000000000000000000000000000000000000000000000000000000000000000000000000000000000000000000000000000000000000000000000000000000000000000000000000000000000000000000000000000000000000000000000000000000000000;
F0 : 00FF0004030700F4EAFEEBFA000000FE0A0000F202DAE6F9FF01F70000020002F2F3DCFCF800000208020F01FFF4DFEC00F9FE00FE05150800F9000600020B1000101718000B18F800000000FF0F010400000EF100F800000D15170AFE06050000000D0003120802052E07EC0000070407161409172B1A0003060000010A0806;
F1 : 0F1210E70701050006020800091417F8FF02FF010E0000F0F9000EFDF7F700FCFAF6F100EAF506FDFE050506F6EEE2CDE4CDEDFA000000000000FD000000000000000000000000000000000000000000000000000000000000000000000000000000000000000000000000000000000000000000000000000000000000000000;
F2 : 0000000000000000000000000000000000000000000000000000000000000000000000000000000000000000000000000000000000000000000000000000000000000000000000000000000000000000000000000000000000000000000000000000000000000000000000000000000000000000000000000000000000000000;
F3 : 0000000000000000000000000000000000000000000000000000000000000000000000000000000000000000000000000000000000000000000000000000000000000000000000000000000000000000000000000000000000000000000000000000000000000000000000000000000000000000000000000000000000000000;
F4 : 0000000000000000000000000000000000000000000000000000000000000000000000000000000000000000000000000000000000000000000000000000000000000000000000000000000000000000000000000000000000000000000000000000000000000000000000000000000000000000000000000000000000000000;
F5 : 0000000000000000000000000000000000000000000000000000000000000000000000000000000000000000000000000000000000000000000000000000000000000000000000000000000000000000000000000000000000000000000000000000000000000000000000000000000000000000000000000000000000000000;
F6 : 00F3000000FC000000020000000002FE00FE00040109F911FF0200FD0004FEFE000300FE00000000FD00FD000900010B0000FFFDFEFC000800030000000000FB00000000F700FDFF010000090000FF00ED00FEF60500000000000000F5FA00000000FF00FEFC00FFEFE2F0F6000000FEF4FEFFEDF2DFFF000000FFFBECF9F5ED;
F7 : F1F4FF020000000000F8FE00F5FD11000000070B0CFEFFFB0000160001000807020300070D10100000000009050A07130411130400FB01060A0200100000020500000000000000000000000000000000000000000000000000000000000000000000000000000000000000000000000000000000000000000000000000000000;
F8 : 0000000000000000000000000000000000000000000000000000000000000000000000000000000000000000000000000000000000000000000000000000000000000000000000000000000000000000000000000000000000000000000000000000000000000000000000000000000000000000000000000000000000000000;
F9 : 0000000000000000000000000000000000000000000000000000000000000000000000000000000000000000000000000000000000000000000000000000000000000000000000000000000000000000000000000000000000000000000000000000000000000000000000000000000000000000000000000000000000000000;
FA : 000000000000000000000000000000000000000000000000000000000000000000000000000000000000000000000000000000000000000000000000000000000503FA0000F800F5061509080300FB02FB0107F00A0309FB02F2FB00FFFF00010A070F04FD000300FF16020B0C11130BF9FD010000000103070105FEFDFFFC00;
FB : 0702050B09FC03F4040001F70DFF0000E4FBF7E6030200000000F4EAD4D3DFF5010504000000EEE9EAE1E1E10003FDFF00F4FFE9E3D2CFDF0905FE06F3F7EBE7E6F0EDF4FF08FF0A00FAF9FBE5F503FD1200F6F3F80106060A241D2200F800F6F70000172B1B1F1DFBED01FE1700151719342C1A0000000007000000000C0000;
FC : 0000000000000000000000000000000000000000000000000000000000000000000000000000000000000000000000000000000000000000000000000000000000000000000000000000000000000000000000000000000000000000000000000000000000000000000000000000000000000000000000000000000000000000;
FD : 0000000000000000000000000000000000000000000000000000000000000000000000000000000000000000000000000000000000000000000000000000000000000000000000000000000000000000000000000000000000000000000000000000000000000000000000000000000000000000000000000000000000000000;
FE : 0000000000000000000000000000000000000000000000000000000000000000000000000000000000000000000000000000000000000000000000000000000000000000000000000000000000000000000000000000000000000000000000000000000000000000000000000000000000000000000000000000000000000000;
FF : 0000000000000000000000000000000000000000000000000000000000000000000000000000000000000000000000000000000000000000000000000000000000000000000000000000000000000000000000000000000000000000000000000000000000000000000000000000000000000000000000000000000000000000;
100 : 0000000000000000000000000000000000000000000000000000000000000000000000000000000000000000000000000000000000000000000000000000000000000000000000000000000000000000000000000000000000000000000000000000000000000000000000000000000000000000000000000000000000000000;
101 : 0000000000000000000000000000000000000000000000000000000000000000000000000000000000000000000000000000000000000000000000000000000000000000000000000000000000000000000000000000000000000000000000000000000000000000000000000000000000000000000000000000000000000000;
102 : 0000000000000000000000000000000000000000000000000000000000000000000000000000000000000000000000000000000000000000000000000000000000000000000000000000000000000000000000000000000000000000000000000000000000000000000000000000000000000000000000000000000000000000;
103 : 00000000000000000000000000000000000000000000000000000000000000000000000000000000000000000000000000000000000000000000000000000000FBFF000008000000120700000003FD05FF000200F400DCFD020004FA071212261F00EB0000F700F500000A00120407EFF400FF0000EF01151A180000000300F3;
104 : F6F900001D0D000004F8FCFE04000B00000B0B05FD000000000D19112B191608FE000000040A07101A0B10100200020CFF14FF0A1515090100FC0008FF051714170801040300FE0000100C08080F130C0009FE00FF00FCF5E9FDFC020400F3FF00F900DFE0F7EF02040303F806EFDDE8DBFDFBFD00080003FFFEFCEBF0F0FAE9;
105 : 0000000000000000000000000000000000000000000000000000000000000000000000000000000000000000000000000000000000000000000000000000000000000000000000000000000000000000000000000000000000000000000000000000000000000000000000000000000000000000000000000000000000000000;
106 : 0000000000000000000000000000000000000000000000000000000000000000000000000000000000000000000000000000000000000000000000000000000000000000000000000000000000000000000000000000000000000000000000000000000000000000000000000000000000000000000000000000000000000000;
107 : 0000000000000000000000000000000000000000000000000000000000000000000000000000000000000000000000000000000000000000000000000000000000000000000000000000000000000000000000000000000000000000000000000000000000000000000000000000000000000000000000000000000000000000;
108 : 02010F0002FB04FE00F8FF0104F90003EF0201F7ECF1EA0000000012FD01FEEDF3DED5F3FAF9FAFEF0F20108FADCF001FFFAFEFCF7FBF300E9F306FC00FA04F5F2F2F4F2EDE800F609FE08FAFD00060E030D04010702FD0307090C06111A1D06FF06000002FFF6072D2A3410EA0C01000200031A2A2E1704FE000AFF010C0318;
109 : 272103F7FEFFFF00FE0009030902EC0500F7FFF9F7FD0106EAE7E3F9F6FF0108FD090DEBDDC1D900090509000AFEFEFBF2E8DCF3F40AFBF4FB02000000F8EF0000000000000000000000000000000000000000000000000000000000000000000000000000000000000000000000000000000000000000000000000000000000;
10A : 0000000000000000000000000000000000000000000000000000000000000000000000000000000000000000000000000000000000000000000000000000000000000000000000000000000000000000000000000000000000000000000000000000000000000000000000000000000000000000000000000000000000000000;
10B : 0000000000000000000000000000000000000000000000000000000000000000000000000000000000000000000000000000000000000000000000000000000000000000000000000000000000000000000000000000000000000000000000000000000000000000000000000000000000000000000000000000000000000000;
10C : 0000000000000000000000000000000000000000000000000000000000000000000000000000000000000000000000000000000000000000000000000000000000000000000000000000000000000000000000000000000000000000000000000000000000000000000000000000000000000000000000000000000000000000;
10D : 0000000000000000000000000000000000000000000000000000000000000000000000000000000000000000000000000000000000000000000000000000000000000000000000000000000000000000000000000000000000000000000000000000000000000000000000000000000000000000000000000000000000000000;
10E : 00FC00FFF8FDEBF0F8ECEAFE0502010104081100FE000E0100040A0B0705030203FAF806FC03000400FBE7F0E3F4F500FC040000ECEDF8F902F800F4FF00000700050C0C00FFFED9FE01F900FF000A06FF1100FCFBFC000902FF0205030000FF0000020602000A0A07FAFAFEF2FA0014100E160FFFF9130EFF0000010000F500;
10F : FF0B241A00FCFE00FFF2F2F3EB010000F00007030000F70010091B1AF8F500FCF50000130C07000000FD00FBF4F90703000805F6F0000000FE00FFFAF6F8FB0000000000000000000000000000000000000000000000000000000000000000000000000000000000000000000000000000000000000000000000000000000000;
110 : 0000000000000000000000000000000000000000000000000000000000000000000000000000000000000000000000000000000000000000000000000000000000000000000000000000000000000000000000000000000000000000000000000000000000000000000000000000000000000000000000000000000000000000;
111 : 0000000000000000000000000000000000000000000000000000000000000000000000000000000000000000000000000000000000000000000000000000000000000000000000000000000000000000000000000000000000000000000000000000000000000000000000000000000000000000000000000000000000000000;
112 : 0000000000000000000000000000000000000000000000000000000000000000000000000000000000000000000000000000000000000000000000000000000000000000000000000000000000000000000000000000000000000000000000000000000000000000000000000000000000000000000000000000000000000000;
113 : 0000000000000000000000000000000000000000000000000000000000000000000000000000000000000000000000000000000000000000000000000000000000000000000000000000000000000000000000000000000000000000000000000000000000000000000000000000000000000000000000000000000000000000;
114 : 0000000000000000000000000000000000000000000000000000000000000000000000000000000000000000000000000000000000000000000000000000000000000000000000000000000000000000000000000000000000000000000000000000000000000000000000000000000000000000000000000000000000000000;
115 : 0000000000000000000000000000000000000000000000000000000000000000000000000000000000000000000000000000000000000000000000000000000000000000000000000000000000000000000000000000000000000000000000000000000000000000000000000000000000000000000000000000000000000000;
116 : 0000000000000000000000000000000000000000000000000000000000000000000000000000000000000000000000000000000000000000000000000000000000000000000000000000000000000000000000000000000000000000000000000000000000000000000000000000000000000000000000000000000000000000;
117 : 0000000000000000000000000001F8020000FF00080704FEFD000000F40008050117040A00000000FFFD0200FE0B0B03FB000100F8F4EAEEF909100300FF00FFFC00F8F70316000600FC0000040100000704FFFE06000100000000FE00FC00F800FA0504000000000400ED0000FF0800030808000801F1F806FE070006000709;
118 : 0100000000FDFFF8FEF8FC00F50002000300000500F400FE01030000040100F8EE000A08180805000000FEFF0000001212090CFC0000000000030001081000F300000000000000000000000000000000000000000000000000000000000000000000000000000000000000000000000000000000000000000000000000000000;
119 : 0000000000000000000000000000000000000000000000000000000000000000000000000000000000000000000000000000000000000000000000000000000000000000000000000000000000000000000000000000000000000000000000000000000000000000000000000000000000000000000000000000000000000000;
11A : 000000000000FE00F2FBFD0201000000FD0401F6F6F7FFF20500FC0003F1E3F5FD00E5F4010C0001F7FDF40001000709FAF5FF00F4F7F2F8F8FDF205FF0000F5F3E5E8EBF1EBED00040506F2E2E2FAF70004F00000010000FDF5FFFE050700000000FDFCF5E8DFF1FE08FFEF0B01F9F6F8FB000000030000F8FDFAEB00010100;
11B : 04040C01000100FCF6F1FDFE061C060005FBFDF2E1FFEEEEFE141300FFFC0000000200FD112C0A0C0000000001FD000F1A291BFE0000000005000000FBFC000000000000000000000000000000000000000000000000000000000000000000000000000000000000000000000000000000000000000000000000000000000000;
11C : 0000000000000000000000000000000000000000000000000000000000000000000000000000000000000000000000000000000000000000000000000000000000000000000000000000000000000000000000000000000000000000000000000000000000000000000000000000000000000000000000000000000000000000;
11D : 00080009080C0A0A0405000C010000010F0500000B0600FB05FA05050703F60000120000000005000001F7050001100000000000FBF6F8001B120000F400000206F6F400000304FEF60000000900FD00FEF7F300FB000004020000FDEFFAFC0C000000FF030000F9F4F9000DF200000000000D00F2F90304FB000505000004FA;
11E : F6DF0000FC00030100FE00F3F1EAF3FBF9020000000606000000FC00FD080901F80900F90001F8FA00000103FF0A18070B01EFF707000000000000020B000005FFFF0000FEFFEFFE011309000000050000F9F6F81119100400000002F9FBFEFC001210F9000005FF0805FE03020A000200FD0B00FDF2F7E9FF080DFC000000FD;
11F : FAF7E7F5E000FEFF00FF000000FF00EFED0007000000FC00FC00EDEFEB021205000000FDFCF2E2EAEE040400FD01FFF500F3F5FBF1FCF8FD000800F6FCFFF1F500EEF903F20605F9FE0008FDEDE8F700FFF700000A060002FFDA00FB030B0000050600ECECD4FA00000100000D0D180DFC0000DA030000080D1008060200FAF0;
120 : 0000000000000000000000000000000000000000000000000000000000000000000000000000000000000000000000000000000000000000000000000000000000000000000000000000000000000000000000000000000000000000000000000000000000000000000000000000000000000000000000000000000000000000;
121 : 0000000000000000000000000000000000000000000000000000000000000000000000000000000000000000000000000000000000000000000000000000000000000000000000000000000000000000000000000000000000000000000000000000000000000000000000000000000000000000000000000000000000000000;
122 : 0000000000000000000000000000000000000000000000000000000000000000000000000000000000000000000000000000000000000000000000000000000000000000000000000000000000000000000000000000000000000000000000000000000000000000000000000000000000000000000000000000000000000000;
123 : 0000000000000000000000000000000000000000000000000000000000000000000000000000000000000000000000000000000000000000000000000000000000000000000000000000000000000000000000000000000000000000000000000000000000000000000000000000000000000000000000000000000000000000;
124 : 0000000000000000000000000000000000000000000000000000000000000000000000000000000000000000000000000000000000000000000000000000000000000000000000000000000000000000000000000000000000000000000000000000000000000000000000000000000000000000000000000000000000000000;
125 : 0000000000000000000000000000000000000000000000000000000000000000000000000000000000000000000000000000000000000000000000000000000000000000000000000000000000000000000000000000000000000000000000000000000000000000000000000000000000000000000000000000000000000000;
126 : 0000000000000000000000000000000000000000000000000000000000000000000000000000000000000000000000000000000000000000000000000000000000000000000000000000000000000000000000000000000000000000000000000000000000000000000000000000000000000000000000000000000000000000;
127 : 0000000000000000000000000000000000000000000000000000000000000000000000000000000000000000000000000000000000000000000000000000000000000000000000000000000000000000000000000000000000000000000000000000000000000000000000000000000000000000000000000000000000000000;
128 : 0000000000000000000000000000000000000000000000000000000000000000000000000000000000000000000000000000000000000000000000000000000000000000000000000000000000000000000000000000000000000000000000000000000000000000000000000000000000000000000000000000000000000000;
129 : 0000000000000000000000000000000000000000000000000000000000000000000000000000000000000000000000000000000000000000000000000000000000000000000000000000000000000000000000000000000000000000000000000000000000000000000000000000000000000000000000000000000000000000;
12A : 0000000000000000000000000000000000000000000000000000000000000000000000000000000000000000000000000000000000000000000000000000000000000000000000000000000000000000000000000000000000000000000000000000000000000000000000000000000000000000000000000000000000000000;
12B : 0000000000000000000000000000000000000000000000000000000000000000000000000000000000000000000000000000000000000000000000000000000000000000000000000000000000000000000000000000000000000000000000000000000000000000000000000000000000000000000000000000000000000000;
12C : 0000000000000000000000000000000000000000000000000000000000000000000000000000000000000000000000000000000000000000000000000000000000000000000000000000000000000000000000000000000000000000000000000000000000000000000000000000000000000000000000000000000000000000;
12D : 000000000000000000000000000000000000000000000000000000000000000000000000000000000000000000000000000000000000000000000000000000000000FD00FFFF0000FF00000000000000000000000000000000000000000000000000FB0000000000000000000000000000000000000000000000000000000000;
12E : 0201000000000000000000000000000000000000000000000000000000000000000000000000000101000000000000000000010000000000000000000000000000000000000000000000000000000000000000000000000000000000000000000000000000000000000000000000000000000000000000000000020000020300;
12F : 0000000000000000000000000000000000000000000000000000000000000000000000000000000000000000000000000000000000000000000000000000000000000000000000000000000000000000000000000000000000000000000000000000000000000000000000000000000000000000000000000000000000000000;
130 : 00000000000000000000000000000000000000000000000000000000000000000000000000000000000000000000000000000000000000000000000000000000020002FE00010E00FF0306FEFDFF0001FE0D0004060009000708000F11000F100403000004FD0100FB02100C1804FBFDFC000003000B030300FFFF00FE07F1F7;
131 : 050B03000FFF0B0B01FAFD020805FEF9F70509EC00F80300E3F801E108181515F70000FA0000000000281BF300FD00090A000005171D00000000000002090E1300F5F8FB00000004000000030B00011000FF09ED00FAFA00F500F4F801FCE5F6FA0007200600FF00F200F8F7F8EDFB05060B03F901F9F500F10D111C150F0003;
132 : 0000000000000000000000000000000000000000000000000000000000000000000000000000000000000000000000000000000000000000000000000000000000000000000000000000000000000000000000000000000000000000000000000000000000000000000000000000000000000000000000000000000000000000;
133 : 0000000000000000000000000000000000000000000000000000000000000000000000000000000000000000000000000000000000000000000000000000000000000000000000000000000000000000000000000000000000000000000000000000000000000000000000000000000000000000000000000000000000000000;
134 : 0000000000000000000000000000000000000000000000000000000000000000000000000000000000000000000000000000000000000000000000000000000000000000000000000000000000000000000000000000000000000000000000000000000000000000000000000000000000000000000000000000000000000000;
135 : 0000000000000000000000000000000000000000000000000000000000000000000000000000000000000000000000000000000000000000000000000000000000000000000000000000000000000000000000000000000000000000000000000000000000000000000000000000000000000000000000000000000000000000;
136 : 0000000000000000000000000000000000000000000000000000000000000000000000000000000000000000000000000000000000000000000000000000000002FCF70000FAF4F800F4FFF70803FE0007FFEF0003FF1C000700F2FE0A0E00EFF2FF020E00FEFD0001F2FF000302FD020700FF0E11F9F2E0F2050004000E0903;
137 : 020000FBF7E7ED00FF000000000000010301F900FB000000FF000200FE030000030006FB00F3FB010A18200500000001021A061B312E14020004001817141D1C292B06051600050C0500101C14190CFE00FC000E16120F16190106FD00FF03F70F110E15110CF0000000040E000003FE00FBF0F9000101F9FFFDF9FFF7E7E6FB;
138 : FF0003FFFD000002FCFBFD03060100010000090400FA00020000FE00F8EAEDF2F6FB04000000FDFFF6FAF1ECFA01080903FD00F7F3FBF5E7010A0DFF00FDFAFAEFEDEAF3FFFF04FF00000000FEFFFBE1E6000A0600F90400F3FFE600F6000002000007F4EEE1E7E0E0DF02FB00FBFF0000F4F7FAFB0A03FE00F9000000FB0001;
139 : 00100C0D06FE00FBF302FCFB11F90700000000FE0203FAF70000F8FBF9F7000000F1FE0005FEFEFE000300FF00F601000A061F130000FB00FD010000000000FC00000000000000000000000000000000000000000000000000000000000000000000000000000000000000000000000000000000000000000000000000000000;
13A : 0000000000000000000000000000000000000000000000000000000000000000000000000000000000000000000000000000000000000000000000000000000000000000000000000000000000000000000000000000000000000000000000000000000000000000000000000000000000000000000000000000000000000000;
13B : 0000000000000000000000000000000000000000000000000000000000000000000000000000000000000000000000000000000000000000000000000000000000000000000000000000000000000000000000000000000000000000000000000000000000000000000000000000000000000000000000000000000000000000;
13C : 0000000000000000000000000000000000000000000000000000000000000000000000000000000000000000000000000000000000000000000000000000000000000000000000000000000000000000000000000000000000000000000000000000000000000000000000000000000000000000000000000000000000000000;
13D : 0000000000000000000000000000000000000000000000000000000000000000000000000000000000000000000000000000000000000000000000000000000000000000000000000000000000000000000000000000000000000000000000000000000000000000000000000000000000000000000000000000000000000000;
13E : 0000000000000000000000000000000000000000000000000000000000000000000000000000000000000000000000000000000000000000000000000000000000000000000000000000000000000000000000000000000000000000000000000000000000000000000000000000000000000000000000000000000000000000;
13F : 0000000000000000000000000000000000000000000000000000000000000000000000000000000000000000000000000000000000000000000000000000000000000000000000000000000000000000000000000000000000000000000000000000000000000000000000000000000000000000000000000000000000000000;
140 : 0000000000000000000000000000000000000000000000000000000000000000000000000000000000000000000000000000000000000000000000000000000000000000000000000000000000000000000000000000000000000000000000000000000000000000000000000000000000000000000000000000000000000000;
141 : 0000000000000000000000000000000000000000000000000000000000000000000000000000000000000000000000000000000000000000000000000000000000000000000000000000000000000000000000000000000000000000000000000000000000000000000000000000000000000000000000000000000000000000;
142 : 0000000000000000000000000000000000000000000000000000000000000000000000000000000000000000000000000000000000000000000000000000000000000000000000000000000000000000000000000000000000000000000000000000000000000000000000000000000000000000000000000000000000000000;
143 : 0000000000000000000000000000000000000000000000000000000000000000000000000000000000000000000000000000000000000000000000000000000000000000000000000000000000000000000000000000000000000000000000000000000000000000000000000000000000000000000000000000000000000000;
144 : 0000000000000000000000000600000400FA001800FBFA00FFFFF9000100000000EFFD07FBFCF9FE000300F0F0F5F1F1F3F2F5F3F7FD02F9F6E6E4E500EEF2F9E8ECF7FD00F8F4F805FAFFFAF9F604000C00E9F70AF9F800050D1F1C261E01010C000000060118150D13141401FDFCEFF7E5E5FB0D1D071AFB01F6EEE8FCE600;
145 : 0005FFF8F6000000F0F6FAF9FF000300000001030103FFF70A0500FB040000000C000005030AF9F70002030000000000FF01FEF20800000000010001FE0B04FE00000000000000000000000000000000000000000000000000000000000000000000000000000000000000000000000000000000000000000000000000000000;
146 : 0000000000000000000000000000000000000000000000000000000000000000000000000000000000000000000000000000000000000000000000000000000000000000000000000000000000000000000000000000000000000000000000000000000000000000000000000000000000000000000000000000000000000000;
147 : 0000000000000000000000000000000000000000000000000000000000000000000000000000000000000000000000000000000000000000000000000000000000000000000000000000000000000000000000000000000000000000000000000000000000000000000000000000000000000000000000000000000000000000;
148 : 0000000000000000000000000000000000000000000000000000000000000000000000000000000000000000000000000000000000000000000000000000000000000000000000000000000000000000000000000000000000000000000000000000000000000000000000000000000000000000000000000000000000000000;
149 : 0000000000000000000000000000000000000000000000000000000000000000000000000000000000000000000000000000000000000000000000000000000000000000000000000000000000000000000000000000000000000000000000000000000000000000000000000000000000000000000000000000000000000000;
14A : 000000000000000000000000010204000A00E7F2FF0800F7FFFE00F700FFFE0707000002F5FAFDFE0408181A0000EBFFFC050C04170A131C18F20504000000020D110F2013F4E2EF00FE00F900020301F4FFF7FBFC000000F4F400060AF40004000000FEEADAE90215E9EBFD00F300FFEBF0F100080400060100000000020306;
14B : FDEDF5F600000000000600090700EF05FC00080C0B0409111101F80405FF0008120200010D07F5E400FD00030002FDFFFA0000F700FBFFFA001100FFEAFF000100000000000000000000000000000000000000000000000000000000000000000000000000000000000000000000000000000000000000000000000000000000;
14C : 0000000000000000000000000000000000000000000000000000000000000000000000000000000000000000000000000000000000000000000000000000000000000000000000000000000000000000000000000000000000000000000000000000000000000000000000000000000000000000000000000000000000000000;
14D : 0000000000000000000000000000000000000000000000000000000000000000000000000000000000000000000000000000000000000000000000000000000000000000000000000000000000000000000000000000000000000000000000000000000000000000000000000000000000000000000000000000000000000000;
14E : 0000000000000000000000000000000000000000000000000000000000000000000000000000000000000000000000000000000000000000000000000000000000000000000000000000000000000000000000000000000000000000000000000000000000000000000000000000000000000000000000000000000000000000;
14F : 0000000000000000000000000000000000000000000000000000000000000000000000000000000000000000000000000000000000000000000000000000000000000000000000000000000000000000000000000000000000000000000000000000000000000000000000000000000000000000000000000000000000000000;
150 : 0000FB00FFF7FF0905070403FFF40200F300F2FBFE06F3FFF500FFFD0002070010F9F70000010B000000151208FFF5000102000A08090D0D19F9F5040105030B0F12241D12000000050E0108181011051A161200FEFF0F000001000F1A1EFAFCF900FF01FDF0E2F300F8F2090000F900FBF8F1E400E9EBFCFB000000000000F8;
151 : FADAF10AFEFAFE0008FEF7F500ED000E02F8FCFAF7F6FD04050001080000EDFBEFF0FB0000000200010000FEF9FAE9FCF820000D00000000000000000000000000000000000000000000000000000000000000000000000000000000000000000000000000000000000000000000000000000000000000000000000000000000;
152 : 0000000000000000000000000000000000000000000000000000000000000000000000000000000000000000000000000000000000000000000000000000000000000000000000000000000000000000000000000000000000000000000000000000000000000000000000000000000000000000000000000000000000000000;
153 : 0000000000000000000000000000000000000000000000000000000000000000000000000000000000000000000000000000000000000000000000000000000000000000000000000000000000000000000000000000000000000000000000000000000000000000000000000000000000000000000000000000000000000000;
154 : 0000000000000000000000000000000000000000000000000000000000000000000000000000000000000000000000000000000000000000000000000000000000000000000000000000000000000000000000000000000000000000000000000000000000000000000000000000000000000000000000000000000000000000;
155 : 0000000000000000000000000000000000000000000000000000000000000000000000000000000000000000000000000000000000000000000000000000000000000000000000000000000000000000000000000000000000000000000000000000000000000000000000000000000000000000000000000000000000000000;
156 : 0A0000000200000400FEF00000FC000000000405FF05000000020800080003020007FD0000FD0000F9FCF8F90A09F8F2FBFFFDF4FAFDFE00F9E5EA00FDFDFE0000FE00EA00F7000D0000FFF6F8F900F8050D13060001F1FCFB000001030EFE010000FC00000000FF0BFF00FD0000000608101400EA0000060208000000010100;
157 : EE00000000000306000000040A0000FF040008020B1309000000F000020005000F0B00060700FC00030400090C0D05070706F8FF030C10080D0217FB0301FB0000000000000000000000000000000000000000000000000000000000000000000000000000000000000000000000000000000000000000000000000000000000;
158 : 0000000000000000000000000000000000000000000000000000000000000000000000000000000000000000000000000000000000000000000000000000000000000000000000000000000000000000000000000000000000000000000000000000000000000000000000000000000000000000000000000000000000000000;
159 : 0000000000000000000000000000000000000000000000000000000000000000000000000000000000000000000000000000000000000000000000000000000000000000000000000000000000000000000000000000000000000000000000000000000000000000000000000000000000000000000000000000000000000000;
15A : 0000000000000000000000000000000000000000000000000000000000000000000000000000000000000000000000000000000000000000000000000000000000080D030200FD07F409FEFBFF00011207FC050105061315000003FE000A090200FA030D000AFD00FE07FE0018070D1CFD00FF04090F00F3E5DBF1010900F900;
15B : F9F2FADCBCCBF0FE00FE0002F9EAE3C9BAB0D7EEF6FB0000F1EFFBE200F50100FD00FD03010E142C293722F801F600050DFD09371C2F1B0C03FA00FE0D121A161311FB01FCF9FAF5F7FAF7F5F5F5F802F200FF0003FF0400F9E6FD00F901FD0D000005080304F7F1000400000918100D0004EC000FFCFCFB00F9000701000005;
15C : 0000000000000000000000000000000000000000000000000000000000000000000000000000000000000000000000000000000000000000000000000000000000000000000000000000000000000000000000000000000000000000000000000000000000000000000000000000000000000000000000000000000000000000;
15D : 0000000000000000000000000000000000000000000000000000000000000000000000000000000000000000000000000000000000000000000000000000000000000000000000000000000000000000000000000000000000000000000000000000000000000000000000000000000000000000000000000000000000000000;
15E : 0000000000000000000000000000000000000000000000000000000000000000000000000000000000000000000000000000000000000000000000000000000000000000000000000000000000000000000000000000000000000000000000000000000000000000000000000000000000000000000000000000000000000000;
15F : 0000000000000000000000000000000000000000000000000000000000000000000000000000000000000000000000000000000000000000000000000000000000000000000000000000000000000000000000000000000000000000000000000000000000000000000000000000000000000000000000000000000000000000;
160 : 0000000000000000000000000000000000000000000000000000000000000000000000000000000000000000000000000000000000000000000000000000000000000000000000000000000000000000000000000000000000000000000000000000000000000000000000000000000000000000000000000000000000000000;
161 : 0000000000000000000000000000000000000000000000000000000000000000000000000000000000000000000000000000000000000000000000000000000000000000000000000000000000000000000000000000000000000000000000000000000000000000000000000000000000000000000000000000000000000000;
162 : 0000000000000000000000000000000000000000000000000000000000000000000000000000000000000000000000000000000000000000000000000000000000000000000000000000000000000000000000000000000000000000000000000000000000000000000000000000000000000000000000000000000000000000;
163 : 000000000000000000000000000000000000000000000000000000000000000000000000000000000000000000000000000000000000000000000000000000000005000004000000EF000400F500FA0F0700030103FBE900020006070306031005F3F0F80004FF0608060D141D0C0000000606050503081A271DFFF1F7030000;
164 : 1609130E19090000000302180A263128330DF7FC000100020D2906202213111208000600000000000F1F010000010C070105FDF5EAEEF50000010100F6F0F5FAE209FBF8F90004FEF3F5E3000002FCFEF9FDFEF9E0E1EEE9F30707F500FD00F4DCE4F2FDFF0028F700000001F8F410FC02FF05F60A02110201FAFB00011D221E;
165 : 0000000000000000000000000000000000000000000000000000000000000000000000000000000000000000000000000000000000000000000000000000000000000000000000000000000000000000000000000000000000000000000000000000000000000000000000000000000000000000000000000000000000000000;
166 : 0000000000000000000000000000000000000000000000000000000000000000000000000000000000000000000000000000000000000000000000000000000000000000000000000000000000000000000000000000000000000000000000000000000000000000000000000000000000000000000000000000000000000000;
167 : 0000000000000000000000000000000000000000000000000000000000000000000000000000000000000000000000000000000000000000000000000000000000000000000000000000000000000000000000000000000000000000000000000000000000000000000000000000000000000000000000000000000000000000;
168 : 0000F90000FF04FE00F4F300FA0403FE040E0007FE0D050000FA00FF000000100CFDF30A080009FD01F400060C0100000900F7FEFCE5F70A1710090601000000F9FAF70015382600080300F90000FB051107130105070000050C02F10000F4FC01080000FA00EBC9ADC9DCEB000000FBF3F4D4CF93B7D5FA000005000FF4ECD7;
169 : C7E1EE00140000080200F1E6F90E0F00F200000C00000000EA02200CFA00FAFD0607010B00061006FDFF000000030A02FBF300F90500FC00EC000206FD01020700000000000000000000000000000000000000000000000000000000000000000000000000000000000000000000000000000000000000000000000000000000;
16A : 0000000000000000000000000000000000000000000000000000000000000000000000000000000000000000000000000000000000000000000000000000000000000000000000000000000000000000000000000000000000000000000000000000000000000000000000000000000000000000000000000000000000000000;
16B : 0000000000000000000000000000000000000000000000000000000000000000000000000000000000000000000000000000000000000000000000000000000000000000000000000000000000000000000000000000000000000000000000000000000000000000000000000000000000000000000000000000000000000000;
16C : 0000000000000000000000000000000000000000000000000000000000000000000000000000000000000000000000000000000000000000000000000000000000000000000000000000000000000000000000000000000000000000000000000000000000000000000000000000000000000000000000000000000000000000;
16D : 0000000000000000000000000000000000000000000000000000000000000000000000000000000000000000000000000000000000000000000000000000000000000000000000000000000000000000000000000000000000000000000000000000000000000000000000000000000000000000000000000000000000000000;
16E : 01FFFF00F8EDEEF1FBF70000FD020309FFF7F7FF00F9000709090100F5EE00FAEEFE1501020700FAFDEFE5D10002F600000000090100F2FFF406F7F4FE041306F5F3F2001A280100FE000000FE00FDFF001C16F8F5FEFC0801000817080CF6FFFF04FCF5F50306FDD4EAFE11000E00000100FEE1D6DBF00C0102FF00070D0713;
16F : 00E7F2F0FD000009FEFF071B1007FD0005FE001B1514111F02FEF7E200F9F300011500F5FD12FFF500FCFFFE1006F3EFFF0000010000FCFBF900F9F4FC00000000000000000000000000000000000000000000000000000000000000000000000000000000000000000000000000000000000000000000000000000000000000;
170 : 0000000000000000000000000000000000000000000000000000000000000000000000000000000000000000000000000000000000000000000000000000000000000000000000000000000000000000000000000000000000000000000000000000000000000000000000000000000000000000000000000000000000000000;
171 : 0000000000000000000000000000000000000000000000000000000000000000000000000000000000000000000000000000000000000000000000000000000000000000000000000000000000000000000000000000000000000000000000000000000000000000000000000000000000000000000000000000000000000000;
172 : 0000000000000000000000000000000000000000000000000000000000000000000000000000000000000000000000000000000000000000000000000000000000000000000000000000000000000000000000000000000000000000000000000000000000000000000000000000000000000000000000000000000000000000;
173 : 0000000000000000000000000000000000000000000000000000000000000000000000000000000000000000000000000000000000000000000000000000000000000000000000000000000000000000000000000000000000000000000000000000000000000000000000000000000000000000000000000000000000000000;
174 : 0000000000000000000000000000000000000000000000000000000000000000000000000000000000000000000000000000000000000000000000000000000000000000000000000000000000000000000000000000000000000000000000000000000000000000000000000000000000000000000000000000000000000000;
175 : 0000000000000000000000000000000000000000000000000000000000000000000000000000000000000000000000000000000000000000000000000000000000000000000000000000000000000000000000000000000000000000000000000000000000000000000000000000000000000000000000000000000000000000;
176 : 0000000000000000000000000000000000000000000000000000000000000000000000000000000000000000000000000000000000000000000000000000000000000000000000000000000000000000000000000000000000000000000000000000000000000000000000000000000000000000000000000000000000000000;
177 : 00000000000000000000000000F9FCF4FDFDFF000001FFF80200050100000712110005010000090105190C00FF00090000000D030008FB0112061300FC010B060F0802FE0A0C020300000600011118FB02FBED00FDF8060000F2F100FAFBF40000000500FE000A1308F8FF040A000003000013070117FF000401020000010004;
178 : FD000D00000000FE0700FEF00700000200FFFFF5F8FDEBE6FCF9F700FD0000FBFBFAF3F3EBD9EEFDF7FD0000FBFBFFFEFCFD0100000200FD0003F9F7FBF0EAFF00000000000000000000000000000000000000000000000000000000000000000000000000000000000000000000000000000000000000000000000000000000;
179 : 0000000000000000000000000000000000000000000000000000000000000000000000000000000000000000000000000000000000000000000000000000000000000000000000000000000000000000000000000000000000000000000000000000000000000000000000000000000000000000000000000000000000000000;
17A : 000000000000000009FCE9FC0100000700FDE2FD00F800F40005120B0A00EEF40DF5060C010000000000E7E7E100000DFD00FDFC0000EFC9E90D020706FCF7FD00FD00F5F40A1100FEF6FE00FFF4F100160E150905000000030602000108020200000000FB000101FCF000FF00000001081402070E02FDFF00FD00FEFF08FEFD;
